MEMORY_INITIALIZATION_RADIX = 16;
MEMORY_INITIALIZATION_VECTOR = 
00000A4D,
000006D8,
0000068D,
000001E7,
FFFFFF6B,
00000118,
00000116,
000005C3,
00000225,
0000001C,
FFFFFF04,
00000309,
000009CA,
00000856,
00000589,
00000250,
00000693,
00000A3F,
000008EB,
00000566,
000003F3,
0000038A,
0000079D,
00000434,
FFFFFF03,
00000AFE,
000006B5,
00000663,
00000168,
FFFFFF98,
00000146,
0000010C,
0000050E,
0000029B,
000000BD,
FFFFFFA2,
0000043D,
00000991,
000007EE,
0000055D,
000003D8,
00000761,
0000095E,
000008D6,
000004CD,
0000049A,
00000323,
000007D1,
000003C4,
FFFFFFA7,
00000A92,
0000072B,
000006F7,
000001F0,
FFFFFF95,
00000134,
0000011C,
000005AD,
000002C2,
000000CA,
FFFFFF1A,
00000398,
000009FF,
00000876,
00000513,
00000351,
00000722,
000009DE,
000008DE,
00000509,
00000421,
000003F8,
00000817,
000003F0,
FFFFFF97,
00000A61,
0000066B,
000006B7,
00000160,
FFFFFF55,
00000108,
0000016D,
00000586,
00000201,
00000120,
FFFFFF8A,
00000426,
00000957,
000007D3,
000005BB,
00000305,
000006EB,
000009A6,
00000933,
00000525,
0000044C,
00000372,
000007F1,
0000031D,
FFFFFF3C,
00000B06,
00000692,
000005D4,
000001C7,
FFFFFF18,
000000B7,
000000F7,
0000048A,
00000244,
00000023,
FFFFFF1D,
000003E0,
000009AF,
000007F7,
0000053A,
000003D1,
000006E0,
000009AD,
00000997,
000004D6,
000003CA,
0000032B,
00000732,
000003F8,
FFFFFF61,
00000A3B,
0000079E,
0000069F,
00000204,
FFFFFF05,
000000B7,
00000147,
00000548,
00000270,
000000EE,
FFFFFF6A,
0000030B,
0000092D,
000007E2,
000005A7,
000002E4,
0000067C,
00000A3F,
00000972,
00000538,
0000041C,
000003C0,
000007F7,
000003CB,
FFFFFF9D,
00000A24,
00000658,
00000632,
0000016B,
FFFFFF7F,
000000EA,
000001B5,
00000516,
000002AD,
000000E8,
FFFFFF39,
0000035C,
00000941,
000007DF,
00000598,
0000037C,
00000714,
000009D6,
00000914,
000004DA,
000004C1,
00000337,
000007D1,
0000036D,
FFFFFF52,
00000A9C,
00000757,
0000072F,
0000021E,
FFFFFFF8,
000000EF,
000001BD,
0000056F,
0000023D,
00000040,
FFFFFFDC,
000003FE,
000009FA,
00000892,
0000053C,
00000318,
000007A2,
00000A04,
000008EB,
00000491,
00000392,
00000392,
0000081C,
0000039B,
FFFFFF27,
000009E9,
00000729,
00000696,
000001F9,
FFFFFFE7,
000000E6,
00000139,
00000588,
000002C9,
000000F5,
FFFFFF6E,
0000040C,
0000092B,
0000082F,
0000058B,
000002F8,
00000799,
00000956,
00000923,
000004EF,
000003AA,
000003A0,
000007DA,
00000406,
FFFFFF68,
00000ADA,
00000697,
000005F0,
0000018A,
FFFFFFBF,
0000013A,
000000CE,
000004F5,
00000223,
000000B0,
FFFFFFE2,
00000374,
000008F4,
0000082D,
0000058F,
00000375,
000006C1,
00000A0C,
00000902,
000004DE,
00000429,
00000344,
00000796,
00000387,
FFFFFF5C,
00000AA1,
00000746,
000006A4,
0000027F,
FFFFFF12,
00000107,
000000E1,
0000054A,
0000029E,
000000B6,
FFFFFF56,
000002FC,
0000093D,
0000082A,
00000544,
00000286,
000006D8,
000009C7,
000008E8,
0000050A,
00000383,
000003EE,
00000806,
000003D5,
FFFFFFBE,
00000A55,
000006C9,
00000698,
000001CC,
FFFFFF91,
0000015D,
0000019B,
000004CB,
0000023C,
000000AD,
FFFFFF0D,
000003D7,
0000090E,
0000080D,
00000581,
000003D0,
00000794,
000009DE,
000008AD,
000004B1,
00000406,
0000032D,
00000830,
00000335,
FFFFFF8D,
00000AD7,
000006B5,
00000698,
00000225,
FFFFFF36,
0000013C,
00000140,
000005C1,
000002EE,
0000003B,
FFFFFF8B,
000003A5,
00000982,
0000083B,
000005F2,
00000377,
000007BE,
000009C7,
000008E1,
000004AA,
000003A6,
00000376,
000007BA,
00000432,
FFFFFF50,
00000A99,
000006BD,
00000656,
00000222,
FFFFFFC0,
000000D9,
000001D3,
00000555,
000002C1,
00000058,
FFFFFFAE,
00000359,
000009C2,
000008AA,
000005D5,
0000038D,
000006F5,
00000A11,
0000097A,
0000052A,
00000447,
00000368,
00000766,
00000344,
FFFFFF42,
00000A7C,
00000703,
0000065E,
000001DE,
FFFFFF32,
0000016D,
0000013F,
00000487,
00000265,
00000032,
FFFFFF37,
00000379,
000008E7,
0000089D,
0000060F,
000003CE,
00000746,
0000094C,
0000098D,
00000493,
00000473,
000002D9,
000007B4,
000003BB,
FFFFFF88,
00000ACD,
00000772,
000006E7,
000001F7,
FFFFFFD4,
0000009B,
00000182,
0000050D,
0000024E,
0000006C,
FFFFFF11,
00000379,
00000996,
00000879,
000005A0,
00000324,
00000746,
000009C7,
000008EB,
000004D4,
00000371,
000003B3,
00000818,
000003F1,
FFFFFF58,
00000AFE,
00000681,
0000065E,
00000156,
FFFFFF3C,
000000BC,
0000018C,
000004AA,
00000265,
0000007A,
FFFFFF3B,
0000041E,
00000977,
00000846,
00000593,
000003F2,
00000751,
00000A42,
00000914,
00000476,
00000486,
0000037F,
000007AD,
0000033A,
FFFFFF24,
00000A9A,
0000073A,
0000067E,
000001A8,
FFFFFF92,
000000BC,
000001F3,
0000053C,
000002C7,
000000AE,
FFFFFFC5,
0000037E,
00000991,
0000086C,
000005D3,
00000316,
00000769,
000009BD,
0000090C,
000004F7,
000003A6,
00000345,
000007E6,
00000356,
FFFFFFA9,
000009E4,
000006A4,
000006C4,
00000204,
FFFFFF00,
000000AE,
000001AA,
0000051A,
00000260,
000000BC,
FFFFFF17,
0000037D,
0000093A,
00000862,
000005B9,
00000338,
00000770,
00000999,
00000956,
00000546,
0000043F,
00000396,
000007B6,
000003A0,
FFFFFF44,
00000A93,
000006CA,
000006B7,
000001B5,
FFFFFF0E,
000000F0,
00000191,
00000538,
00000204,
FFFFFFFD,
FFFFFF06,
00000393,
0000092F,
0000089D,
00000559,
000003D6,
000006BA,
000009B5,
0000097D,
0000049B,
000003F3,
0000038E,
0000077F,
000003D9,
FFFFFF8A,
00000A5C,
000006BC,
0000070D,
0000020B,
FFFFFFF6,
0000006F,
000000C7,
00000536,
00000220,
00000052,
FFFFFFE8,
000002CE,
000009D9,
0000086F,
00000565,
000002BB,
00000711,
00000A89,
00000919,
00000588,
000003D7,
0000035A,
0000086F,
0000046C,
FFFFFFB6,
00000A43,
00000641,
000006A8,
000001D6,
FFFFFF4E,
000000D3,
000001A3,
000004CE,
00000246,
00000020,
FFFFFF95,
000003FD,
000008EA,
00000855,
000004ED,
00000350,
00000717,
00000A1E,
00000914,
000004F4,
000004B6,
0000039B,
00000816,
00000347,
FFFFFF33,
00000A7B,
0000078F,
000006D6,
000001EA,
FFFFFFB1,
000000B4,
00000175,
00000581,
000002C0,
00000043,
FFFFFF2C,
0000042C,
00000A1C,
00000869,
00000581,
000002E8,
00000797,
00000A87,
0000090F,
000004BC,
00000385,
00000348,
00000847,
00000402,
FFFFFFDD,
00000A42,
000006FB,
000005FF,
0000020E,
FFFFFFC3,
00000030,
000000DD,
00000546,
000002C1,
000000ED,
FFFFFF19,
00000444,
0000095E,
00000825,
0000055F,
000003C5,
00000729,
00000A16,
00000984,
00000462,
0000045E,
00000399,
000007E6,
00000339,
FFFFFF8E,
00000A6D,
000006E4,
00000651,
000001AB,
FFFFFFA0,
0000010C,
0000010E,
000004FD,
000002A3,
00000056,
FFFFFFA5,
0000040B,
0000095F,
000008C6,
000005B7,
00000430,
000006BA,
00000A3C,
000008CA,
0000053F,
00000448,
000003A8,
0000079B,
000003DC,
FFFFFFAC,
00000A4A,
0000077A,
0000075A,
0000025B,
FFFFFFB8,
00000123,
00000104,
000005BD,
000002B2,
00000064,
FFFFFF7A,
000002F2,
000008FD,
00000858,
00000584,
0000028D,
0000072F,
000009B5,
000009BF,
00000571,
00000403,
000003DA,
000007B2,
00000436,
FFFFFF79,
00000A9D,
00000737,
000005E8,
00000168,
FFFFFF91,
000000BE,
000001B2,
000004AD,
00000258,
0000006B,
FFFFFF88,
00000445,
00000935,
000007A9,
000005AA,
00000365,
00000707,
00000944,
000008C9,
00000448,
00000410,
00000354,
00000789,
0000042D,
FFFFFF8D,
00000A1C,
0000074A,
00000690,
00000196,
FFFFFF85,
00000120,
000001BB,
0000058B,
000002CA,
00000090,
FFFFFFB1,
0000034E,
000009C4,
00000827,
000005EF,
00000384,
00000795,
00000A20,
00000982,
000004F5,
0000043D,
000003C3,
00000823,
0000037A,
FFFFFFDD,
000009D4,
00000733,
00000625,
0000020E,
FFFFFF88,
00000080,
00000193,
000005A4,
00000260,
000000B7,
FFFFFF30,
0000037D,
000009A3,
000007BE,
000005DD,
00000300,
000006EB,
000009F7,
00000975,
0000044B,
00000418,
000003F0,
000007C5,
0000038B,
FFFFFF3F,
00000AA5,
00000748,
000006BF,
00000163,
FFFFFF84,
00000109,
00000104,
000004CC,
000001DB,
00000089,
FFFFFFA8,
00000325,
000009CE,
0000086D,
00000520,
00000425,
000006E2,
000009DB,
0000096B,
0000046F,
000004BB,
000003CC,
00000750,
00000361,
FFFFFFE1,
00000AD4,
0000073F,
000006C8,
000001DD,
FFFFFF14,
000000FF,
000000CF,
000004E6,
000002FC,
00000040,
FFFFFFB7,
000002D5,
0000094C,
00000881,
00000549,
00000241,
000006E5,
0000098C,
0000092B,
00000580,
00000392,
000003D2,
0000082A,
0000044B,
FFFFFF9A,
00000A7B,
00000723,
000005E8,
00000230,
FFFFFF28,
000001A2,
00000128,
0000056D,
00000263,
000000C9,
FFFFFFE2,
00000363,
00000920,
00000867,
000004EF,
00000353,
000006EE,
000009D1,
00000907,
00000493,
000004B1,
00000372,
0000077F,
0000035B,
FFFFFF4D,
00000ACA,
0000075E,
000006FC,
00000242,
FFFFFFAE,
000000A0,
000001B8,
000005A0,
00000333,
00000039,
FFFFFFA4,
00000432,
000009D1,
0000084D,
0000056A,
00000341,
00000755,
000009CF,
00000907,
00000493,
000003C2,
0000040D,
0000081C,
000003B2,
FFFFFFEF,
00000A0A,
000006C7,
00000656,
00000222,
FFFFFFBE,
00000069,
000000E5,
000005A7,
000001FF,
00000089,
FFFFFF7B,
00000444,
00000982,
000008A0,
0000055A,
00000308,
00000785,
00000A0E,
000008F3,
000004CD,
000003E8,
000003B7,
000007C3,
00000406,
FFFFFF75,
00000A89,
000006E7,
000006A8,
00000228,
FFFFFF5D,
0000013C,
000001BC,
0000049E,
00000254,
000000E3,
FFFFFF62,
00000334,
000009C1,
000007D3,
000005DB,
000003FA,
00000686,
00000A30,
00000952,
00000477,
00000495,
00000393,
00000798,
00000405,
FFFFFF24,
00000B03,
000006B5,
00000748,
0000028B,
FFFFFF02,
000000AA,
000000CF,
000005AB,
000002F7,
00000031,
FFFFFF46,
000002C6,
000009B8,
0000082D,
000005A5,
0000031F,
00000689,
000009B8,
0000099E,
000004AE,
000003CF,
000003E1,
00000877,
0000039A,
FFFFFFAF,
00000AAC,
0000067F,
0000061E,
000001F8,
FFFFFF2F,
0000019A,
0000017F,
000004D1,
0000022F,
00000107,
FFFFFF6C,
00000426,
00000923,
00000806,
00000586,
000003E5,
0000073A,
00000991,
000008E8,
000004EF,
00000408,
00000368,
0000076D,
000003F0,
FFFFFF40,
00000A78,
00000723,
00000667,
0000023F,
FFFFFF7B,
000000CB,
0000020F,
00000560,
0000029C,
00000031,
FFFFFFA4,
0000036F,
0000098F,
00000873,
000005E5,
00000365,
00000779,
00000A35,
000008EB,
0000048C,
00000459,
000003BD,
000007CF,
00000354,
FFFFFFBB,
00000A5F,
000006D7,
0000060C,
00000167,
FFFFFF31,
0000005C,
000000F9,
000005C8,
000002C6,
000000E3,
FFFFFF69,
00000368,
00000919,
00000896,
00000546,
000002FB,
00000766,
000009C9,
00000921,
0000045A,
0000043C,
00000360,
00000857,
00000377,
FFFFFFAB,
00000AB4,
0000070A,
00000602,
00000247,
FFFFFF25,
0000013A,
0000012D,
00000563,
000001FD,
FFFFFFFF,
FFFFFF1D,
000003D3,
00000983,
00000844,
0000058F,
00000402,
0000073F,
000009D6,
00000976,
000004A8,
00000429,
000003A5,
00000762,
0000036B,
FFFFFFB6,
00000ABD,
0000071E,
00000683,
000002A7,
FFFFFF73,
00000068,
000000F5,
000004FD,
000002E5,
0000002E,
FFFFFF72,
00000310,
0000093A,
00000801,
00000590,
000002C8,
000006AF,
00000A7A,
000009BF,
000005A1,
00000361,
000003A6,
000007E5,
0000041D,
FFFFFF0B,
00000AF9,
000006BC,
00000601,
000001DE,
FFFFFFC6,
00000122,
00000125,
000004A2,
0000023A,
000000F5,
FFFFFF9D,
00000357,
00000907,
000007A4,
0000058E,
0000038B,
00000766,
000009F2,
0000088C,
000004DD,
00000495,
000003FF,
00000770,
00000366,
FFFFFF85,
00000AC8,
00000782,
0000066A,
00000225,
FFFFFF31,
0000004B,
0000015E,
0000056A,
000002F8,
00000073,
FFFFFFA4,
00000401,
0000099E,
000008E9,
00000604,
000002E3,
0000079F,
00000A99,
0000097D,
000004D8,
000003FD,
00000376,
000007DE,
000003A3,
FFFFFF88,
000009F0,
00000680,
000006B7,
000001AF,
FFFFFFAE,
00000026,
00000141,
00000527,
00000228,
00000032,
FFFFFF76,
00000359,
00000987,
0000086D,
00000571,
000003A6,
0000070A,
000009A3,
000008CA,
000004BE,
00000391,
00000365,
000007A6,
0000034E,
FFFFFF51,
00000B1D,
00000757,
000006C4,
000001AE,
FFFFFF1D,
000000A8,
0000019E,
00000566,
000001CE,
000000D4,
FFFFFF22,
000003A7,
000009B4,
00000862,
0000052B,
000003D6,
000006B2,
000009C4,
0000091F,
0000049E,
000004BB,
000002F2,
000007F9,
0000038A,
FFFFFFEC,
00000AFB,
00000720,
0000070D,
0000022D,
FFFFFF61,
00000032,
0000018C,
000004D4,
000002C2,
00000029,
FFFFFF2A,
000002A2,
000009C5,
00000849,
00000604,
000002DA,
000006FF,
000009CC,
000009D9,
0000059C,
000003DC,
0000036C,
00000865,
0000041D,
FFFFFFF9,
00000A29,
00000653,
000005B2,
00000202,
FFFFFFB7,
000000AA,
0000019B,
000004B4,
00000241,
00000102,
FFFFFFEC,
0000036B,
000008EA,
0000085F,
000005D1,
00000410,
000007E6,
00000975,
0000096B,
000004CB,
00000474,
00000409,
00000802,
000003D9,
FFFFFF8A,
00000B05,
000006CA,
000006AD,
0000019E,
FFFFFFCA,
00000065,
00000147,
0000060E,
000002E6,
00000045,
FFFFFF97,
00000389,
000009F3,
000007FB,
0000050C,
00000306,
00000717,
000009F5,
000009A6,
000004BF,
0000044F,
00000331,
00000840,
00000394,
FFFFFF48,
000009DF,
000006E1,
00000625,
00000216,
FFFFFFF9,
000000E6,
00000137,
000004E2,
00000241,
00000096,
FFFFFF12,
000003E3,
000009EB,
00000896,
000005F9,
00000329,
00000730,
000009BA,
0000090C,
000004C3,
00000456,
000003E5,
0000081F,
000003B4,
FFFFFF35,
00000A6A,
00000717,
00000684,
000001AE,
FFFFFFED,
000000CE,
00000107,
0000049B,
00000263,
00000007,
FFFFFF62,
000003A2,
0000094B,
00000877,
000005FA,
0000041B,
000006D1,
0000094E,
000008F3,
000004F7,
00000495,
00000372,
00000801,
00000359,
FFFFFF5F;
