MEMORY_INITIALIZATION_RADIX = 16;
MEMORY_INITIALIZATION_VECTOR = 
00000269,
000006B9,
000007A8,
0000026C,
FFFFFF92,
00000A3C,
00000DB2,
000009F7,
00000532,
000001C1,
00000AA9,
00000AC0,
000007BB,
00000570,
00000404,
0000047E,
00000321,
00000234,
0000033B,
000003CF,
000000AE,
FFFFFFCC,
FFFFFF8A,
000000F8,
00000224,
000001A9,
00000673,
000007A5,
00000317,
FFFFFFB1,
00000993,
00000D3F,
000009CE,
00000572,
00000281,
00000A83,
00000AD7,
000006D7,
000005AB,
00000474,
000004E9,
000002D7,
00000152,
000003D8,
00000407,
00000117,
FFFFFFE3,
FFFFFF68,
0000010A,
000002DC,
00000243,
000006F3,
00000777,
00000303,
FFFFFF24,
000009CE,
00000D68,
00000A03,
000005C9,
00000215,
00000AC0,
00000ABE,
00000780,
00000582,
00000444,
00000443,
0000038F,
0000022C,
00000343,
000004C5,
0000009C,
FFFFFF26,
FFFFFF82,
00000170,
00000250,
00000183,
00000629,
00000768,
0000031F,
FFFFFFDD,
00000A2F,
00000DCC,
000009DB,
00000584,
00000279,
00000A5C,
00000A64,
000007A4,
00000542,
00000406,
0000047B,
0000038D,
000001B1,
0000036F,
0000045C,
000000DC,
FFFFFFE1,
FFFFFF7D,
0000016E,
0000026E,
0000025A,
0000065F,
000006C1,
000002B8,
FFFFFF79,
000009B2,
00000D63,
00000A4B,
00000542,
00000241,
00000A9A,
00000AC3,
00000797,
00000589,
000004C1,
000004DF,
0000031A,
00000188,
00000355,
0000040F,
000000C7,
FFFFFFB0,
FFFFFFA3,
00000159,
000002E1;
