MEMORY_INITIALIZATION_RADIX = 16;
MEMORY_INITIALIZATION_VECTOR = 
0000000A4D47,
00000006D8E1,
000000068D9D,
00000001E7F9,
FFFFFFFF6BD9,
0000000118F4,
0000000116C9,
00000005C306,
0000000225D7,
000000001CEE,
FFFFFFFF0461,
000000030926,
00000009CA25,
000000085614,
000000058941,
000000025073,
0000000693AB,
0000000A3FB9,
00000008EB45,
0000000566D5,
00000003F3AD,
000000038AC2,
000000079DE0,
000000043412,
FFFFFFFF03B0,
0000000AFE56,
00000006B509,
000000066325,
0000000168CE,
FFFFFFFF98E0,
000000014645,
000000010C3B,
000000050E7A,
000000029B72,
00000000BD24,
FFFFFFFFA261,
000000043D7F,
000000099156,
00000007EEF9,
000000055DE2,
00000003D87E,
000000076158,
000000095E37,
00000008D699,
00000004CDEB,
000000049ABF,
000000032370,
00000007D1A7,
00000003C4B9,
FFFFFFFFA71E,
0000000A9272,
000000072BA1,
00000006F749,
00000001F01C,
FFFFFFFF9500,
000000013484,
000000011C63,
00000005AD42,
00000002C290,
00000000CAFA,
FFFFFFFF1A60,
000000039877,
00000009FFDC,
00000008768E,
0000000513B6,
000000035129,
000000072211,
00000009DE5D,
00000008DEC3,
00000005097C,
000000042193,
00000003F8D1,
00000008170D,
00000003F02A,
FFFFFFFF97F7,
0000000A619C,
000000066BCC,
00000006B7C8,
000000016046,
FFFFFFFF553B,
000000010800,
000000016D23,
000000058617,
0000000201C7,
000000012087,
FFFFFFFF8A85,
000000042640,
000000095701,
00000007D373,
00000005BBCF,
0000000305B5,
00000006EBA6,
00000009A602,
000000093313,
000000052501,
000000044C1F,
0000000372C6,
00000007F131,
000000031DAE,
FFFFFFFF3CF7,
0000000B06BD,
000000069287,
00000005D418,
00000001C7A0,
FFFFFFFF18C1,
00000000B7BC,
00000000F7B4,
000000048A11,
0000000244B3,
000000002370,
FFFFFFFF1DC9,
00000003E006,
00000009AF54,
00000007F76D,
000000053A88,
00000003D182,
00000006E067,
00000009AD90,
000000099778,
00000004D65A,
00000003CAE5,
000000032B00,
00000007323B,
00000003F897,
FFFFFFFF61D2,
0000000A3B5C,
000000079E00,
000000069F89,
000000020422,
FFFFFFFF0572,
00000000B7AC,
00000001476D,
000000054825,
000000027014,
00000000EEDA,
FFFFFFFF6AC7,
000000030BB5,
000000092DFC,
00000007E2E1,
00000005A7F9,
00000002E4EE,
000000067CA1,
0000000A3FB9,
0000000972F3,
0000000538C0,
000000041CA3,
00000003C084,
00000007F77A,
00000003CB1C,
FFFFFFFF9D4A,
0000000A24BD,
0000000658E0,
000000063282,
000000016B5D,
FFFFFFFF7F47,
00000000EA1C,
00000001B531,
000000051628,
00000002AD5D,
00000000E8A9,
FFFFFFFF396C,
000000035C38,
0000000941FA,
00000007DF9D,
0000000598C4,
000000037C55,
00000007148B,
00000009D689,
00000009140A,
00000004DAB8,
00000004C126,
0000000337EB,
00000007D1A7,
000000036DAF,
FFFFFFFF52A4,
0000000A9CB0,
000000075726,
000000072F9A,
000000021E30,
FFFFFFFFF8D7,
00000000EF66,
00000001BDAA,
000000056FD2,
000000023D71,
0000000040BD,
FFFFFFFFDCEF,
00000003FEDD,
00000009FABD,
0000000892B7,
000000053CAC,
0000000318D7,
00000007A211,
0000000A04C3,
00000008EB90,
00000004912A,
000000039237,
00000003926A,
000000081C2B,
000000039BAF,
FFFFFFFF2753,
00000009E94A,
00000007293D,
000000069680,
00000001F9E0,
FFFFFFFFE726,
00000000E6B8,
0000000139F0,
0000000588A6,
00000002C975,
00000000F502,
FFFFFFFF6E5C,
000000040CA6,
000000092B7C,
000000082F9C,
000000058B2B,
00000002F8E8,
0000000799BA,
0000000956A6,
0000000923B7,
00000004EF3E,
00000003AAD7,
00000003A0DA,
00000007DA26,
0000000406A4,
FFFFFFFF687C,
0000000AD61A,
0000000697A6,
00000005F041,
000000018A2F,
FFFFFFFFBF28,
000000013A4B,
00000000CEBE,
00000004F596,
00000002236C,
00000000B03D,
FFFFFFFFE2E8,
000000037481,
00000008F473,
000000082D2F,
000000058F03,
000000037559,
00000006C1AF,
0000000A0C48,
0000000902FD,
00000004DE08,
00000004299D,
00000003449A,
000000079612,
0000000387F3,
FFFFFFFF5CB3,
0000000AA1C2,
0000000746F6,
00000006A4A8,
000000027F03,
FFFFFFFF123F,
000000010708,
00000000E106,
000000054AB4,
000000029E29,
00000000B688,
FFFFFFFF564C,
00000002FC59,
000000093D58,
000000082A8F,
000000054422,
000000028636,
00000006D8CA,
00000009C767,
00000008E8B6,
000000050AAC,
000000038309,
00000003EE99,
0000000806D6,
00000003D55A,
FFFFFFFFBE92,
0000000A5561,
00000006C984,
0000000698E8,
00000001CCA5,
FFFFFFFF9132,
000000015D4F,
000000019B97,
00000004CBEA,
000000023CBA,
00000000ADC7,
FFFFFFFF0DE7,
00000003D719,
000000090EC7,
000000080DB1,
0000000581B9,
00000003D0D0,
00000007948B,
00000009DE37,
00000008ADA3,
00000004B1C2,
000000040644,
000000032DAD,
00000008305F,
00000003355D,
FFFFFFFF8D85,
0000000AD791,
00000006B5DE,
000000069890,
0000000225DE,
FFFFFFFF3648,
000000013C32,
00000001403A,
00000005C1BD,
00000002EE15,
000000003B9E,
FFFFFFFF8B04,
00000003A544,
00000009826B,
000000083BAD,
00000005F26F,
00000003778F,
00000007BE3A,
00000009C752,
00000008E152,
00000004AAC4,
00000003A6B2,
000000037641,
00000007BAE4,
0000000432B9,
FFFFFFFF5048,
0000000A99EE,
00000006BDB8,
000000065680,
0000000222D5,
FFFFFFFFC0C0,
00000000D9EB,
00000001D389,
000000055573,
00000002C1C7,
0000000058D9,
FFFFFFFFAE5C,
000000035973,
00000009C286,
00000008AA7E,
00000005D569,
000000038D63,
00000006F5E3,
0000000A1187,
000000097AC1,
000000052A1F,
000000044700,
000000036888,
0000000766F3,
000000034415,
FFFFFFFF4216,
0000000A7C80,
00000007032B,
000000065E55,
00000001DEAA,
FFFFFFFF325B,
000000016D7E,
000000013F62,
000000048781,
0000000265FB,
0000000032CC,
FFFFFFFF3762,
0000000379A0,
00000008E7A6,
000000089DD3,
000000060F03,
00000003CEF3,
0000000746CD,
000000094C48,
000000098D3B,
0000000493CB,
0000000473DA,
00000002D915,
00000007B4CB,
00000003BB27,
FFFFFFFF8838,
0000000ACD47,
00000007727B,
00000006E737,
00000001F755,
FFFFFFFFD4CE,
000000009B83,
00000001824E,
000000050D44,
000000024ECC,
000000006C4A,
FFFFFFFF112D,
0000000379C9,
0000000996F2,
0000000879EB,
00000005A04B,
0000000324EE,
0000000746DE,
00000009C767,
00000008EB45,
00000004D4E9,
00000003711D,
00000003B3B7,
0000000818C2,
00000003F183,
FFFFFFFF582B,
0000000AFE56,
0000000681D6,
000000065E07,
0000000156E3,
FFFFFFFF3CB7,
00000000BC08,
000000018C3B,
00000004AAA3,
0000000265AF,
000000007A94,
FFFFFFFF3BFB,
000000041EC7,
0000000977BD,
000000084603,
0000000593A5,
00000003F217,
0000000751FC,
0000000A420E,
00000009140A,
0000000476E1,
000000048644,
000000037F99,
00000007ADD0,
000000033A7C,
FFFFFFFF248F,
0000000A9A20,
000000073AFD,
000000067EF7,
00000001A86E,
FFFFFFFF9271,
00000000BC32,
00000001F36D,
000000053C9E,
00000002C7AF,
00000000AED2,
FFFFFFFFC5E5,
000000037EDD,
0000000991C7,
000000086C51,
00000005D3B6,
000000031648,
0000000769BF,
00000009BD15,
000000090CD8,
00000004F791,
00000003A6B2,
00000003459E,
00000007E669,
000000035690,
FFFFFFFFA9E2,
00000009E42B,
00000006A41E,
00000006C495,
00000002041D,
FFFFFFFF00C0,
00000000AE66,
00000001AA93,
000000051A92,
00000002607F,
00000000BCB0,
FFFFFFFF1752,
000000037D4A,
000000093AD8,
0000000862CF,
00000005B940,
0000000338E8,
0000000770C5,
000000099935,
0000000956EA,
000000054648,
000000043F52,
00000003969D,
00000007B64F,
00000003A03E,
FFFFFFFF44A5,
0000000A938A,
00000006CAD9,
00000006B7EF,
00000001B5B4,
FFFFFFFF0E84,
00000000F00E,
00000001914D,
000000053825,
0000000204B3,
FFFFFFFFFD0A,
FFFFFFFF06BF,
00000003933A,
000000092F54,
000000089DD3,
000000055940,
00000003D6A1,
00000006BA00,
00000009B53E,
000000097DDF,
000000049B79,
00000003F3DA,
000000038ED7,
000000077F08,
00000003D9DF,
FFFFFFFF8AC8,
0000000A5CA4,
00000006BCB8,
000000070D9D,
000000020BD0,
FFFFFFFFF616,
000000006FFE,
00000000C76D,
00000005363A,
0000000220B8,
0000000052B1,
FFFFFFFFE838,
00000002CE44,
00000009D981,
000000086FAE,
00000005656A,
00000002BBF8,
00000007111B,
0000000A89F6,
00000009195A,
00000005881D,
00000003D784,
000000035A1E,
000000086FCC,
000000046C64,
FFFFFFFFB6E3,
0000000A4375,
0000000641D6,
00000006A844,
00000001D6E3,
FFFFFFFF4EA3,
00000000D312,
00000001A345,
00000004CE7A,
0000000246F7,
0000000020FB,
FFFFFFFF9595,
00000003FD7F,
00000008EAF0,
00000008555F,
00000004ED3F,
0000000350D0,
00000007171A,
0000000A1E37,
00000009140A,
00000004F451,
00000004B6E8,
000000039BC2,
0000000816C6,
000000034748,
FFFFFFFF33EB,
0000000A7B68,
000000078F78,
00000006D601,
00000001EAFD,
FFFFFFFFB129,
00000000B484,
0000000175FC,
0000000581BD,
00000002C001,
00000000434C,
FFFFFFFF2C4C,
000000042CF2,
0000000A1C05,
0000000869C1,
0000000581CB,
00000002E833,
0000000797D4,
0000000A8752,
000000090F67,
00000004BCAF,
00000003856A,
00000003482D,
0000000847B0,
000000040215,
FFFFFFFFDD15,
0000000A42E3,
00000006FB28,
00000005FF76,
000000020E5A,
FFFFFFFFC34F,
0000000030F6,
00000000DDC7,
000000054617,
00000002C1C7,
00000000ED54,
FFFFFFFF19E1,
0000000444F8,
000000095EAF,
00000008255F,
000000055FA6,
00000003C5B5,
000000072917,
0000000A16A6,
0000000984FF,
000000046271,
000000045E0A,
00000003992C,
00000007E6F3,
0000000339D7,
FFFFFFFF8EE3,
0000000A6D24,
00000006E473,
000000065189,
00000001AB77,
FFFFFFFFA070,
000000010C37,
000000010EBE,
00000004FD44,
00000002A36C,
0000000056A3,
FFFFFFFFA577,
000000040B8C,
000000095FF8,
00000008C6C9,
00000005B7F9,
00000004303A,
00000006BA00,
0000000A3CEC,
00000008CAAB,
000000053F50,
000000044855,
00000003A871,
000000079B31,
00000003DC6E,
FFFFFFFFAC0F,
0000000A4AB8,
000000077A29,
000000075A6A,
000000025B2C,
FFFFFFFFB8A5,
000000012331,
0000000104DE,
00000005BDE8,
00000002B2A4,
00000000649C,
FFFFFFFF7A23,
00000002F21B,
00000008FD58,
0000000858A3,
000000058422,
000000028DE4,
000000072FD4,
00000009B57B,
00000009BFC0,
000000057112,
000000040309,
00000003DA1E,
00000007B25B,
0000000436A1,
FFFFFFFF7973,
0000000A9D0F,
000000073798,
00000005E844,
0000000168CE,
FFFFFFFF9132,
00000000BE97,
00000001B2A1,
00000004AD32,
0000000258E2,
000000006B38,
FFFFFFFF88C8,
00000004452D,
00000009352D,
00000007A9DA,
00000005AAAF,
00000003654A,
0000000707BE,
00000009449D,
00000008C9CC,
0000000448CC,
000000041082,
000000035414,
0000000789F9,
000000042DAF,
FFFFFFFF8D85,
0000000A1CB0,
000000074A59,
0000000690E2,
000000019682,
FFFFFFFF85A4,
00000001200A,
00000001BB1B,
000000058BFB,
00000002CA3E,
000000009019,
FFFFFFFFB16A,
000000034E39,
00000009C4FA,
000000082732,
00000005EFDF,
00000003845C,
000000079544,
0000000A20EC,
00000009829A,
00000004F501,
000000043DBC,
00000003C30E,
0000000823D9,
000000037A67,
FFFFFFFFDD15,
00000009D4CF,
00000007337A,
0000000625DC,
000000020E5A,
FFFFFFFF886E,
000000008052,
000000019389,
00000005A4CF,
00000002607F,
00000000B791,
FFFFFFFF30EB,
000000037D4A,
00000009A3CE,
00000007BEF8,
00000005DD17,
000000030096,
00000006EBA6,
00000009F7ED,
0000000975A2,
000000044B67,
0000000418EC,
00000003F036,
00000007C5AB,
000000038BC3,
FFFFFFFF3F86,
0000000AA576,
00000007484A,
00000006BF9D,
0000000163C9,
FFFFFFFF8447,
0000000109A7,
000000010480,
00000004CCA0,
00000001DBBE,
0000000089D6,
FFFFFFFFA806,
000000032525,
00000009CE0D,
000000086D2F,
0000000520EE,
0000000425FD,
00000006E2F6,
00000009DBA4,
000000096BF3,
000000046FF4,
00000004BB88,
00000003CC48,
0000000750F4,
00000003618D,
FFFFFFFFE1D2,
0000000ADA14,
000000073F47,
00000006C87F,
00000001DDBC,
FFFFFFFF14CE,
00000000FF5A,
00000000CF1B,
00000004E6DD,
00000002FCE1,
0000000040C5,
FFFFFFFFB794,
00000002D5F2,
000000094CB5,
000000088199,
000000054941,
000000024117,
00000006E596,
000000098C85,
000000092B45,
00000005806F,
000000039265,
00000003D270,
000000082AAD,
000000044B1C,
FFFFFFFF9ABB,
0000000A7BC7,
00000007231D,
00000005E844,
00000002307C,
FFFFFFFF283D,
00000001A26E,
000000012864,
000000056D32,
000000026320,
00000000C9F0,
FFFFFFFFE261,
0000000363E6,
0000000920B3,
00000008674B,
00000004EFCE,
00000003535F,
00000006EE25,
00000009D16A,
00000009073D,
00000004930A,
00000004B1C9,
0000000372CC,
000000077FBC,
000000035BC3,
FFFFFFFF4D85,
0000000ACAC4,
000000075ED4,
00000006FC67,
000000024207,
FFFFFFFFAE9A,
00000000A00A,
00000001B88B,
00000005A076,
000000033334,
00000000390F,
FFFFFFFFA49E,
000000043210,
00000009D1C7,
000000084D98,
000000056AC1,
0000000341CD,
000000075544,
00000009CF00,
0000000907B9,
0000000493BA,
00000003C2DB,
000000040D4C,
000000081C2B,
00000003B2B9,
FFFFFFFFEF01,
0000000A0A92,
00000006C7F5,
000000065680,
0000000222D5,
FFFFFFFFBE30,
000000006947,
00000000E575,
00000005A75F,
00000001FF37,
00000000897D,
FFFFFFFF7B29,
0000000444F8,
000000098286,
00000008A040,
000000055A87,
000000030844,
000000078540,
0000000A0EF8,
00000008F313,
00000004CDF6,
00000003E848,
00000003B7E5,
00000007C31C,
0000000406A4,
FFFFFFFF7549,
0000000A894D,
00000006E702,
00000006A893,
0000000228E8,
FFFFFFFF5DE0,
000000013CDA,
00000001BCD2,
000000049E8C,
000000025410,
00000000E370,
FFFFFFFF62E8,
000000033481,
00000009C140,
00000007D396,
00000005DBD0,
00000003FA78,
0000000686CD,
0000000A301F,
000000095259,
0000000477A2,
000000049522,
0000000393F6,
0000000798A2,
000000040564,
FFFFFFFF2461,
0000000B030A,
00000006B50A,
00000007487F,
000000028BD0,
FFFFFFFF02E3,
00000000AAE0,
00000000CF1B,
00000005ABFC,
00000002F7C2,
000000003169,
FFFFFFFF46F0,
00000002C696,
00000009B83A,
000000082D1E,
00000005A56A,
000000031FCF,
00000006896D,
00000009B80A,
000000099E78,
00000004AE83,
00000003CFD6,
00000003E1CC,
00000008777A,
000000039A78,
FFFFFFFFAF35,
0000000AAC6B,
000000067F46,
000000061E07,
00000001F82A,
FFFFFFFF2FEB,
000000019AC0,
000000017F6E,
00000004D109,
000000022FED,
000000010761,
FFFFFFFF6C9F,
000000042675,
000000092342,
000000080603,
0000000586D8,
00000003E54A,
000000073AF2,
00000009916A,
00000008E885,
00000004EF32,
0000000408D4,
00000003688F,
000000076DD0,
00000003F03E,
FFFFFFFF40B8,
0000000A78D9,
0000000723F2,
0000000667EC,
000000023F78,
FFFFFFFF7B67,
00000000CB8F,
000000020F96,
000000056076,
000000029C2A,
000000003161,
FFFFFFFFA49E,
000000036F81,
000000098F38,
0000000873FF,
00000005E5A2,
0000000365A4,
00000007791B,
0000000A3567,
00000008EB90,
000000048C0B,
0000000459E5,
00000003BDF0,
00000007CF5F,
000000035401,
FFFFFFFFBBCE,
0000000A5F0C,
00000006D751,
000000060C43,
0000000167F4,
FFFFFFFF3164,
000000005C7B,
00000000F9F0,
00000005C8A6,
00000002C6E6,
00000000E316,
FFFFFFFF693D,
0000000368CF,
000000091990,
000000089603,
00000005460D,
00000002FB77,
000000076687,
00000009C9D9,
000000092128,
000000045AC3,
000000043CC3,
0000000360DA,
000000085797,
000000037748,
FFFFFFFFAB0C,
0000000AB4D2,
000000070AD9,
00000006022C,
0000000247A0,
FFFFFFFF258E,
000000013A4B,
000000012D76,
0000000563AA,
00000001FD05,
FFFFFFFFFF9A,
FFFFFFFF1DC9,
00000003D33A,
0000000983CF,
00000008443A,
000000058F03,
000000040226,
000000073F1F,
00000009D686,
000000097630,
00000004A846,
00000004299D,
00000003A5E1,
0000000762DF,
000000036BCB,
FFFFFFFFB64D,
0000000ABDEB,
000000071E00,
000000068360,
00000002A7F9,
FFFFFFFF7387,
000000006850,
00000000F581,
00000004FDE8,
00000002E5D7,
000000002EDA,
FFFFFFFF7275,
0000000310D4,
000000093AC9,
000000080199,
0000000590EF,
00000002C8C5,
00000006AFD4,
0000000A7A9A,
00000009BFC0,
00000005A1B6,
0000000361C1,
00000003A6EB,
00000007E58E,
000000041D08,
FFFFFFFF0B5E,
0000000AF938,
00000006BCB7,
0000000601DE,
00000001DE91,
FFFFFFFFC6F5,
00000001226E,
0000000125D5,
00000004A2F5,
000000023A2A,
00000000F576,
FFFFFFFF9D43,
000000035719,
000000090719,
00000007A4BB,
000000058E86,
000000038BB1,
000000076677,
00000009F2B2,
000000088C5C,
00000004DD47,
0000000495A0,
00000003FF99,
00000007705F,
000000036601,
FFFFFFFF85D7,
0000000AC835,
0000000782AB,
000000066A7C,
0000000225DE,
FFFFFFFF3129,
000000004B8F,
000000015EF2,
000000056AB3,
00000002F853,
0000000073F0,
FFFFFFFFA49E,
00000004016C,
000000099E94,
00000008E9C1,
00000006045A,
00000002E314,
000000079F82,
0000000A993E,
000000097D7B,
00000004D8D8,
00000003FDBC,
000000037641,
00000007DEBB,
00000003A35D,
FFFFFFFF889A,
00000009F0F8,
000000068047,
00000006B7C8,
00000001AFA2,
FFFFFFFFAED4,
0000000026B8,
00000001419E,
00000005275F,
00000002282D,
000000003273,
FFFFFFFF760A,
000000035973,
0000000987A5,
000000086D0D,
000000057192,
00000003A6FC,
000000070A5E,
00000009A372,
00000008CA1D,
00000004BE9A,
00000003913E,
0000000365F9,
00000007A6F3,
000000034E52,
FFFFFFFF5172,
0000000B1DC8,
0000000757A6,
00000006C4BC,
00000001AE06,
FFFFFFFF1DE0,
00000000A85F,
000000019E1A,
00000005663A,
00000001CEF1,
00000000D414,
FFFFFFFF22E8,
00000003A7B4,
00000009B473,
0000000862F2,
000000052B2C,
00000003D6A1,
00000006B252,
00000009C49A,
000000091F26,
000000049E08,
00000004BB88,
00000002F2AE,
00000007F9EA,
000000038A83,
FFFFFFFFEC0F,
0000000AFB5C,
00000007208F,
000000070D9D,
000000022D18,
FFFFFFFF619B,
00000000328E,
000000018C8C,
00000004D4F2,
00000002C200,
0000000029BB,
FFFFFFFF2AC7,
00000002A2BF,
00000009C506,
000000084947,
000000060422,
00000002DAB1,
00000006FF30,
00000009CC85,
00000009D95A,
000000059C97,
00000003DCA2,
000000036C09,
00000008658E,
000000041D08,
FFFFFFFFF973,
0000000A29DC,
0000000653C1,
00000005B282,
000000020268,
FFFFFFFFB799,
00000000AA1C,
000000019B97,
00000004B4E0,
0000000241D8,
000000010242,
FFFFFFFFEC9F,
000000036B94,
00000008EAF0,
000000085F9D,
00000005D116,
0000000410D0,
00000007E677,
000000097541,
000000096B14,
00000004CB5B,
000000047459,
0000000409D6,
00000008024B,
00000003D934,
FFFFFFFF8AF5,
0000000B05A6,
00000006CA59,
00000006AD0B,
000000019E30,
FFFFFFFFCAC3,
000000006528,
0000000147E8,
000000060E8A,
00000002E667,
0000000045DC,
FFFFFFFF97D1,
00000003891B,
00000009F30F,
00000007FBAD,
000000050C08,
0000000306EB,
0000000717D4,
00000009F567,
00000009A671,
00000004BF3F,
000000044FA7,
000000033123,
000000084002,
000000039401,
FFFFFFFF489A,
00000009DF0C,
00000006E18F,
0000000625DC,
000000021609,
FFFFFFFFF912,
00000000E6B8,
000000013760,
00000004E240,
0000000241C7,
00000000964A,
FFFFFFFF1233,
00000003E3B1,
00000009EB7C,
000000089603,
00000005F940,
00000003298C,
0000000730C5,
00000009BA7D,
000000090CAD,
00000004C3B9,
00000004565C,
00000003E5F9,
000000081F45,
00000003B4B8,
FFFFFFFF3549,
0000000A6A95,
0000000717A6,
0000000684BC,
00000001AE06,
FFFFFFFFED3C,
00000000CEC6,
000000010710,
000000049BFC,
00000002636C,
000000000747,
FFFFFFFF62E8,
00000003A296,
000000094B7D,
00000008776D,
00000005FA88,
000000041BBF,
00000006D10B,
000000094ED7,
00000008F3A1,
00000004F7A2,
000000049522,
0000000372AE,
000000080198,
0000000359DF,
FFFFFFFF5F43;
