MEMORY_INITIALIZATION_RADIX = 16;
MEMORY_INITIALIZATION_VECTOR = 
401A6F11,
40D72342,
40F507BB,
401B0B5C,
BEDA4A7B,
4123C5D1,
415B2913,
411F7290,
40A65659,
3FE083D7,
412A9A16,
412C0BC1,
40F76408,
40AE08BD,
4080827F,
408FC247,
40487AD3,
400D0412,
404EF6BD,
4073D206,
3F2E5AB3,
BF99B301,
BEEB742F,
3F787BD7,
40092151,
3FD4DE22,
40CE7F6B,
40F4B5CF,
4045ECA4,
BE9CD9D7,
41193675,
4153F5E0,
411CE334,
40AE5659,
402041EC,
412833AF,
412D7C65,
40DAE927,
40B564E6,
408E96FA,
409D32EB,
4035EB77,
3FA9644E,
407600FA,
4080F340,
3F8BA83B,
BF8E2DE2,
BF1701C5,
3F8533AE,
403735CC,
4010D578,
40DE7F6B,
40EEF340,
4040CDEB,
BF5B39B8,
411CE489,
4156853C,
41203F5D,
40B937A1,
400560A4,
412C0AB9,
412BE2CC,
40F007DF,
40B0462D,
4088827F,
4088661E,
4063FFF1,
400B188D,
4050E242,
4098A155,
3F1C6F2E,
BF59CC67,
BEFAD058,
3FB866E1,
40140298,
3FC1AAEF,
40C537BD,
40ED07BB,
4047D829,
BF9173E6,
4122F904,
415CC2AD,
411DB001,
40B093CA,
401E5666,
4125CD49,
41264932,
40F482C0,
40A8462D,
4080D46A,
408F705B,
40635C1A,
3FD8C076,
405BC38A,
408B829C,
3F5C6F2E,
BF8F7590,
BF0286E4,
3FB71F33,
401BB0AD,
40169807,
40CBF00F,
40D83AEE,
402E3E8F,
BF06BED7,
411B21FA,
41563350,
4124BA3E,
40A841DE,
401041EC,
4129A453,
412C34B7,
40F2E927,
40B13BF0,
40983093,
409BEB3D,
40468F4E,
3FC44595,
40555D23,
4081E903,
3F47F44D,
BFA7C77B,
BFAE103F,
3FACE1C3,
40387D7A;
