MEMORY_INITIALIZATION_RADIX = 16;
MEMORY_INITIALIZATION_VECTOR = 
4124D47F,
40DB1C32,
40D1B3BA,
3FF3FCD5,
BF1427DB,
3F8C7A3E,
3F8B64C3,
40B860DB,
400975CD,
3DE775AE,
BFFDCFF1,
40424984,
411CA25A,
41056148,
40B1282E,
40141CF3,
40D2756A,
4123FB90,
410EB45A,
40ACDAAD,
407CEB4E,
4062B089,
40F3BC18,
40868250,
BF7C5037,
412FE56E,
40D6A12C,
40CC64BF,
3FB4674E,
BFB39006,
3FA322D8,
3F861DC5,
40A1CF4A,
4026DC97,
3F3D2422,
BEBB3E25,
4087AFFB,
4119156E,
40FDDF2C,
40ABBC5B,
40761F8C,
40EC2B0C,
4115E379,
410D6999,
4099BD69,
409357F4,
4048DC16,
40FA34F1,
40712E64,
BEB1C427,
4129272D,
40E57421,
40DEE922,
3FF80E17,
BFB5801D,
3F9A4271,
3F8E3181,
40B5A85A,
4030A42D,
3F4AFAFB,
BF65A06D,
40661DCD,
411FFDC0,
410768E9,
40A276DE,
40544A52,
40E4422F,
411DE5D2,
410DEC3A,
40A12F94,
4084326E,
407E3456,
410170D2,
407C0A8F,
BED013F2,
412619C4,
40CD7998,
40D6F90A,
3FB0233C,
BF2AC5ED,
3F840026,
3FB6919B,
40B0C2ED,
400071D3,
3F9043C3,
BFBABDBE,
4084C80D,
41157018,
40FA6E77,
40B779F3,
40416D4D,
40DD74CE,
411A6025,
41133138,
40A4A021,
408983EE,
405CB196,
40FE2620,
40476BAB,
BF43097A,
41306BDF,
40D250F7,
40BA830E,
3FE3D03E,
BF673F0F,
3F37BC26,
3F77B42B,
40914229,
40112CFB,
3E0DC18B,
BF6237B3,
407801BA,
411AF54F,
40FEEDAA,
40A75112,
40746097,
40DC0CEA,
411AD903,
4119778A,
409ACB52,
4072B945,
404AC02C,
40E6477E,
407E25F5,
BF1E2E9F,
4123B5C7,
40F3C009,
40D3F12B,
400108A8,
BF7A8E41,
3F37ACCE,
3FA3B6AE,
40A904B2,
401C052A,
3F6EDA3B,
BFCA9CBD,
4042ED5B,
4112DFCA,
40FC5C29,
40B4FF38,
40393BAC,
40CF9422,
4123FB90,
41172F3B,
40A7181D,
40839460,
4070212D,
40FEEF4C,
4072C72F,
BEC56D3B,
41224BD5,
40CB1C0E,
40C65045,
3FB5AEFC,
BFC05CD3,
3F6A1CBA,
3FDA98A6,
40A2C50D,
402B5778,
3F68A941,
BF4694D5,
40570E0A,
41141FAB,
40FBF3A7,
40B31884,
405F154E,
40E29173,
411D6897,
411140A3,
409B5702,
409824C0,
404DFACF,
40FA34F1,
405B6BD5,
BF2D5CF5,
4129CB04,
40EAE4C5,
40E5F35F,
40078C2A,
BF839498,
3F6F662A,
3FDED558,
40ADFA45,
400F5C7F,
3E817B15,
BF918889,
407FB766,
411FABD5,
41092B78,
40A79596,
404635D7,
40F4422F,
41204C38,
410EB906,
40922557,
40648DD1,
40649ABC,
4101C2BD,
4066EBD7,
BF58ADD0,
411E94A5,
40E527AC,
40D2D014,
3FFCF009,
BF8C6D34,
3F66B89E,
3F9CF801,
40B114D9,
40325D58,
3F750268,
BFC8D239,
408194DA,
4112B7C6,
4102F9CB,
40B16578,
403E3A19,
40F3375D,
41156A62,
41123B75,
409DE7CF,
406AB5F0,
406836B4,
40FB44D8,
4080D48E,
BF17845B,
412D61A2,
40D2F4CE,
40BE082D,
3FC517EC,
BFA06C54,
3F9D25C1,
3F4EBE68,
409EB2CD,
4008DB10,
3F303D2F,
BF8E8C7D,
405D2072,
410F473A,
4102D2FE,
40B1E06E,
405D5659,
40D835E0,
4120C489,
41102FDC,
409BC115,
408533AD,
40512693,
40F2C25F,
4061FCFF,
BF234D57,
412A1C2D,
40E8DEC2,
40D49502,
401FC0FA,
BF6DC174,
3F83847B,
3F6106F6,
40A9569E,
40278A48,
3F36884F,
BFD4DA2E,
403F1651,
4113D58D,
4102A8F6,
40A88457,
40218D97,
40DB1941,
411C7671,
410E8B64,
40A1558E,
4060C259,
407BA64C,
41006D68,
4075568B,
BE82DDDE,
41255612,
40D93089,
40D31D11,
3FE652D3,
BFB76710,
3FAEA7F7,
3FCDCBD9,
40997D5F,
400F2E82,
3F2DC7F9,
BF7219F4,
4075C65C,
4110EC78,
4100DB1B,
40B0373C,
40743406,
40F29173,
411DE379,
410ADA3C,
4096384A,
4080C897,
404B6B72,
410305FD,
404D575A,
BEE4F75B,
412D7919,
40D6BBCF,
40D31218,
400977AF,
BF49B88C,
3F9E197B,
3FA01D06,
40B837B6,
403B8574,
3E6E7B49,
BFBA7E4B,
40695100,
411826B6,
4103BAD4,
40BE4DE8,
405DE3EC,
40F7C74D,
411C752E,
410E152F,
4095588A,
4069AC89,
405D907F,
40F75C84,
40865733,
BF2FB80E,
41299EE3,
40D7B709,
40CAD014,
4008B575,
BF9FA067,
3F59EBD2,
3FE9C4CE,
40AAAE72,
403071D3,
3EB1B2E4,
BFA8D239,
40565CE7,
411C286A,
410AA7E0,
40BAAD26,
406358D2,
40DEBC7C,
41211877,
4117AC19,
40A543F8,
4088E017,
405A2239,
40ECDE72,
40510545,
BF3DEAC1,
4127C808,
40E06571,
40CBCABC,
3FEF555C,
BF4DA575,
3FB6BF5B,
3F9FB120,
4090F03E,
40197EE7,
3E4B322E,
BF489E19,
405E6820,
410E7A6E,
4109DD3C,
40C1E06E,
4073BCC0,
40E8D9B7,
4114C489,
4118D3B3,
40927967,
408E7B5B,
4036454B,
40F69969,
406EC9CC,
BEEF9070,
412CD47F,
40EE4F66,
40DCE6ED,
3FFBAAE9,
BF95990C,
3F1B83D8,
3FC12752,
40A1A889,
4013B33E,
3ED895BD,
BFF7698A,
405E727A,
41196F27,
41079EB8,
40B40976,
40493BAC,
40E8DBD0,
411C7671,
410EB45A,
409A9D3C,
405C4777,
406CEDFA,
41018C21,
407C60C8,
BF27D556,
412FE56E,
40D03AC6,
40CBC0E8,
3FAB718C,
BF434901,
3F3C083F,
3FC61DC5,
40955469,
40196BF3,
3EF5298C,
BF440579,
4083D8F0,
41177BD4,
4104603A,
40B274AD,
407C85F2,
40EA3F87,
412420E9,
411140A3,
408EDC21,
4090C897,
405FE654,
40F5BA0F,
404E9F08,
BF5B7170,
4129A20F,
40E75FA6,
40CFDEE4,
3FD4370C,
BFB6C7CB,
3F3C32F7,
3FF9B6A0,
40A793DF,
4031EBDB,
3F2ED206,
BF9D0DA7,
405FB766,
41191C79,
4106C512,
40BA76DE,
40459200,
40ED37F1,
411BD157,
4110CD81,
409EF223,
4069AC89,
40516789,
40FCCD28,
4055A429,
BEAC3CE8,
411E42BA,
40D483D5,
40D892A4,
40010761,
BF7F40CE,
3F2E66B3,
3FD549ED,
40A35249,
40181FE8,
3F3CB07C,
BF68AEAF,
405F52A9,
4113AD88,
41062CFE,
40B72808,
404E3A19,
40EE18A5,
41199358,
41156EA9,
40A8C917,
4087EA54,
4065A758,
40F6C9F7,
40680F83,
BF3B5B65,
412938AC,
40D95B34,
40D6FDEF,
3FDADA7B,
BF717C7F,
3F700E12,
3FC8A6E2,
40A704B8,
40012CFB,
BC3D80EF,
BF7941F0,
4064CE86,
4112F54F,
4109DD3C,
40AB281C,
4075A845,
40D7401D,
411B53E5,
4117DDF0,
40936F29,
407CF6B6,
4063B5EF,
40EFE117,
407677E0,
BEEA71B8,
4125CA41,
40D79714,
40E1B3BA,
4002F42D,
BF84F535,
3EDFFD73,
3F476D5C,
40A6C741,
40082E1F,
3EA5628A,
BF8BE46B,
40339132,
411D981C,
4106FAE1,
40ACAD4D,
402EFE3B,
40E2237E,
41289F67,
411195A2,
40B103A2,
4075E111,
40568794,
4106FCC5,
408D8C8D,
BE923A07,
4124375A,
40C83AC6,
40D50896,
3FEB718C,
BF315D7C,
3F53127D,
3FD1A2E4,
4099CF4A,
4011BDDE,
3E03ECB2,
BED4D7BE,
407F5FF5,
410EAF07,
410555FC,
409DA7E0,
40543406,
40E2E35E,
4121E379,
411140A3,
409E8A35,
4096DD12,
4066F091,
41016C64,
4051D23B,
BF4C1547,
4127B68A,
40F1EF02,
40DAC02C,
3FF57EBA,
BFA76BA2,
3F3484E3,
3FBAFE4E,
40B037B6,
40300056,
3E8699CE,
BF53B4E8,
40859E42,
4121C050,
41069C1C,
40B0396D,
403A0CE2,
40F2FA81,
4128752E,
4110F677,
409795FA,
40615A9E,
40520B60,
41047B0F,
408042B8,
BE0BAD03,
41242E3F,
40DF651D,
40BFEECD,
400396BD,
BF9E58B9,
3E43D83C,
3F5DC70D,
40A8C2ED,
403071D3,
3F6D5453,
BF661F53,
40889F17,
4115EAF9,
410255F4,
40ABF4D5,
40716D4D,
40E522E3,
41216A62,
41184FF0,
408C4E36,
408BC15F,
40664B2F,
40FCDE72,
404E75E9,
BEE23BE9,
4126D245,
40DC8E67,
40CA3122,
3FD5BBC3,
BFAFC87D,
3F861B84,
3F875F34,
409FA88F,
4028DB10,
3EAD472C,
BEB5133C,
40817181,
4115FF8C,
410C6C98,
40B6FF26,
40860756,
40D7401D,
4123CEC6,
410CAABD,
40A7EA0B,
40890AB7,
406A1C55,
40F36636,
40771BB7,
BEA7E25C,
4124AB89,
40EF4528,
40EB4D54,
4016CB37,
BFA3AD87,
3F9198F6,
3F826F00,
40B7BD04,
402CA901,
3EC93995,
BFC2EEA9,
403C86F5,
410FD58D,
41058A3D,
40B08457,
4023791C,
40E5FA88,
411B57B9,
411BFC08,
40AE225B,
4080612C,
40768794,
40F64B75,
4086D43B,
BF068DA8,
4129D0F4,
40E6F318,
40BD0896,
3FB4674E,
BFB76710,
3F3E979B,
3FD950F8,
4095A655,
401638BF,
3ED6713A,
BEEE7158,
4088A5BD,
411352DE,
40F53B55,
40B555F4,
405952BF,
40E0F7D9,
411449DF,
410C9CCC,
40891992,
40821046,
4055050C,
40F13F2E,
4085B5EA,
BEE4F75B,
4121CB04,
40E94B2B,
40D21C55,
3FCB414A,
BFBD2E32,
3F900501,
3FDD8DAA,
40B17F64,
40328FB2,
3F1019B4,
BFA74B18,
40538E70,
411C4FAC,
41027326,
40BDFBFD,
4061171F,
40F2A895,
41220EC7,
411829AA,
409EA038,
4087B78C,
4070C3B2,
41023D9E,
405E99EB,
BE0BAD03,
411D4CF7,
40E66F5B,
40C4BB99,
400396BD,
BFBBC95D,
3F005238,
3FC9C4CE,
40B499F7,
40181FE8,
3F3791C4,
BF4F1515,
405F52A9,
411A3CE5,
40F7DF1B,
40BBA2E9,
4040259E,
40DD74CE,
411F7EDD,
41175A2E,
40896CEE,
40831D88,
407C0DBF,
40F8B57C,
4062F0CA,
BF407A1D,
412A5764,
40E90949,
40D7F3B2,
3FB1E4B8,
BFBDDCF8,
3F84D3D6,
3F82407C,
40999415,
3FEDDF15,
3F09D6C9,
BEAFF484,
40494968,
411CE0D4,
4106D2FE,
40A41DDF,
4084BFA7,
40DC5ED6,
411DBA4B,
4116BF38,
408DFE86,
4097711D,
40731218,
40EA1E88,
40586365,
BDF174F4,
412DA14C,
40E7E8FF,
40D90FE3,
3FEEDE1C,
BF6B3218,
3F7F5AE2,
3F4F1B71,
409CDBBC,
403F385D,
3E818B80,
BFA43657,
40357CB7,
4114CB50,
4108199A,
40A9282E,
401045E9,
40DCB2DA,
4118C85D,
4112B45A,
40B00DE0,
40649963,
40749C0E,
4102AAD9,
40896397,
BECA8BF3,
4127BC79,
40E463BC,
40BD0896,
400C1F2C,
BF57C3E2,
3FD13753,
3F943240,
40ADA655,
4018C81C,
3F49F0EF,
BF8ECF89,
4058F98F,
41120B30,
410674B5,
409DF9CB,
4054D7DD,
40DDC4A6,
411D16AC,
411073D6,
40926140,
4096393B,
405CB320,
40EFF780,
4056F0F4,
BF327BAD,
412CAC4C,
40EBDA87,
40DF8CF9,
401081ED,
BFA8B350,
3F200A01,
3FDC45FC,
40B40EC0,
404CCD22,
3E643DD9,
BFADB17E,
4086421A,
411D1C79,
4104D98D,
40AD5826,
40507348,
40EAA895,
411CF00F,
41107B96,
40927742,
4070B6C7,
4081A987,
4101C2BD,
406CAE66,
BF887FDE,
4120A920,
40D8FEB7,
40CAD014,
4008B575,
BFA0E815,
3ED28FF5,
3F657522,
40B4EBE3,
3FFF9BF8,
3F097D49,
BFC26BD2,
40889F17,
4118286A,
410A0409,
40AB50FD,
40421124,
40F0A801,
4120EF81,
410F3138,
4099BED9,
407A1219,
406DF944,
40F86390,
4080D48E,
BF0AB78E,
412894D5,
40DCE053,
40D5126A,
400A3A0A,
BF222056,
3F9E6D6F,
3FDE6972,
4093D185,
40150405,
3F637063,
BF1D18FA,
404D2072,
411C1407,
40FA72C9,
40BB7A08,
407E9E07,
40D0D9B7,
412301F9,
4115259E,
408EF448,
4092A451,
4064FD9D,
40F3144A,
4080AC94,
BF5B9F42,
413030A8,
40D6A151,
40E90FE3,
4022F42D,
BF7D1D9D,
3F2AE001,
3F4F1B71,
40B57F93,
403DF0AF,
3E45A65C,
BFDC8843,
4031A5AD,
411B83A1,
4102D1EB,
40B4AD4D,
4047F3FE,
40D12DBB,
411B80AE,
4119E78D,
4095D06F,
4073F58C,
40787319,
410777A6,
40669E39,
BEA19630,
412AC6B6,
40CFE8DA,
40C3C0E8,
3FFC1563,
BF5015CE,
3FCD6049,
3FBFB75E,
409A2136,
400BFB4F,
3F83B0C9,
BF1361A2,
4084CEB3,
41123426,
4100603A,
40B0DB13,
407952BF,
40E75E40,
411916AC,
410E8851,
409DE65E,
40811A83,
405A23C4,
40EDBA0F,
407C0FAC,
BF3F487A,
41278D94,
40E47E5E,
40CCFD9D,
400FDE16,
BFC24CEA,
3F4B8F20,
4003E58D,
40AC0EC0,
40270A93,
3E458587,
BFADB17E,
405BE05C,
4118F383,
41073FF3,
40BCB44E,
4059690B,
40EF2376,
41235676,
410EB906,
4091817F,
408B3CAB,
406F7C04,
40F9EBE0,
40550052,
BE8865DE,
4125F0CE,
40DAEA3C,
40C18866,
3FB3FA46,
BF4E9CF7,
3EB8F65B,
3F79F003,
40B914D9,
4031B981,
3F6316E3,
BFCB6195,
405A33F1,
4111990E,
41096031,
40A8C1A1,
403EDDF0,
40ECD0F7,
411C9D96,
41121280,
408B5873,
40879869,
405836B4,
41057976,
405DD212,
BEA9E9FD,
412B4D27,
40E15B34,
40C0459D,
4011E81F,
BF5A7242,
3F9D25C1,
3F96BB5D,
40AC755C,
3FFE82EC,
BACD4F29,
BF6237B3,
4074CE86,
41183CFD,
410443A2,
40B1E06E,
408044C6,
40E7E3F4,
411D6860,
4117630F,
409508C3,
408533AD,
4069787E,
40EC5BF9,
405AF2C2,
BE93677A,
412BDEBC,
40E3C009,
40D06C0C,
4029FE6A,
BF0C79C6,
3ED0A14A,
3F7581D7,
409FBD04,
403975CD,
3E3B68EC,
BFC6C5B3,
40443509,
4113AC97,
4100199A,
40B21DF1,
4032316E,
40D5FA88,
4127A9A4,
411BFC08,
40B436D5,
4058706D,
4069BAC7,
40FCB1DB,
4083A108,
BF74A222,
412F9383,
40D796EF,
40C03BCA,
3FEF4896,
BF9C85C8,
3F913753,
3F92EA92,
40945EA7,
400E8AAB,
3F75760E,
BEC57B95,
4055C65C,
41107197,
40F4977E,
40B1D0D6,
4062EC58,
40ECCEE3,
411F2B27,
4108C5C2,
409BA8EE,
4092B41D,
407FE654,
40EE0BFB,
40598050,
BEF45384,
412C8356,
40F05569,
40CD4F88,
400977AF,
BF4ED744,
3E971E40,
3FAF792F,
40AD566E,
403E14D0,
3EE7E17C,
BFADB17E,
40802D9F,
4119E945,
410E9C1C,
40C08B59,
4038C534,
40F3F043,
412993E6,
4117D7BF,
409B1B19,
407F6F19,
405D907F,
40FBD766,
4068D75C,
BEEECC44,
411F0F87,
40D008F4,
40D6F90A,
3FD7D151,
BFA8962A,
3E1AE279,
3FA0CF0C,
40A4EBE3,
400A0B6D,
3E49CC2E,
BFC4FB2E,
40565CE7,
41187A55,
4106D0D5,
40AE3245,
4069BF38,
40E14BD8,
411A372F,
410CA1DC,
4097D354,
40644F8A,
40597E62,
40F4DE72,
405394A1,
BF2E8E98,
4131DC83,
40EAF4CE,
40D89789,
3FD70371,
BF622056,
3F285FFD,
3FCF0D49,
40ACC748,
3FE778AF,
3F54143A,
BF5D18FA,
4069ED3F,
411B473A,
41062F27,
40A5658D,
4075A845,
40D64A5B,
411C49A7,
4111F26B,
4093C115,
4097711D,
403CABB1,
40FF3D40,
4062A0D6,
BF89F897,
412FB5C7,
40E411F5,
40E1B3BA,
400B4618,
BF1E654B,
3E4A3856,
3FC6460A,
409A9E4C,
4030800B,
3E26EE0A,
BFEA9CBD,
4028AFEA,
411C506E,
4104947B,
40C08457,
4036AC50,
40DFE60D,
411CC85D,
411D95A2,
40B392FE,
407728BF,
405B0275,
410658ED,
4083A108,
BCD1B4F2,
41229DC0,
40CA7837,
40B65045,
40009A0E,
BFA433DD,
3F2A1CBA,
3FCDCBD9,
40969C17,
40107630,
3F81216D,
BF89B0D1,
405AE514,
410EAF07,
4105F9D3,
40BA22C1,
40821A03,
40FCCEE3,
4117541C,
4116B147,
40996B7D,
408E8B27,
40813AD8,
410024B6,
40764D1C,
BEEA1613,
41305A61,
40D94B2B,
40D5A174,
3FCF1854,
BF9A9ED5,
3ECA5173,
3FA3F411,
40C1D150,
403999EF,
3E8BB886,
BFB417E5,
406246C2,
411F30F3,
40FF75A9,
40A1811B,
4041BAF6,
40E2FA81,
411F5676,
411A671B,
4097E7E6,
4089F4FD,
404C48D0,
4104002E,
40650052,
BF376622,
411DF0CE,
40DC31EA,
40C4BB99,
40058242,
BF837771,
3F66B89E,
3F9BB053,
409C480C,
401071D3,
3F164A16,
BF6DCD67,
4078EC43,
411EB7C6,
41096031,
40BF2808,
404A630F,
40E618A5,
411BA7D3,
4110CAD2,
4098772B,
408ACB9C,
40797E62,
4101F458,
406D2E3B,
BF4AB78E,
4126A950,
40E2F4CE,
40D09789,
3FD70371,
BF896217,
3F4EC664,
3F83882A,
40937F9A,
4018DB10,
3CE8ED9D,
BF1D18FA,
4068A591,
4114B7DE,
410776D5,
40BF5112,
408377F9,
40DA2165,
4114ED7E,
410F3A19,
409EF448,
4092A451,
405CABB1,
41001981,
405677E0,
BF20BDFB;
