MEMORY_INITIALIZATION_RADIX = 16;
MEMORY_INITIALIZATION_VECTOR = 
0000000269BC,
00000006B91A,
00000007A83D,
000000026C2D,
FFFFFFFF92DB,
0000000A3C5D,
0000000DB291,
00000009F729,
0000000532B2,
00000001C107,
0000000AA9A1,
0000000AC0BC,
00000007BB20,
000000057045,
000000040413,
000000047E12,
0000000321EB,
000000023410,
000000033BDA,
00000003CF48,
00000000AE5A,
FFFFFFFFCC9A,
FFFFFFFF8A46,
00000000F87B,
000000022485,
00000001A9BC,
0000000673FB,
00000007A5AE,
0000000317B2,
FFFFFFFFB194,
000000099367,
0000000D3F5E,
00000009CE33,
0000000572B2,
000000028107,
0000000A833A,
0000000AD7C6,
00000006D749,
00000005AB27,
0000000474B7,
00000004E997,
00000002D7AD,
0000000152C8,
00000003D803,
00000004079A,
000000011750,
FFFFFFFFE3A5,
FFFFFFFF68FF,
000000010A67,
00000002DCD7,
000000024355,
00000006F3FB,
00000007779A,
000000030337,
FFFFFFFF24C7,
00000009CE48,
0000000D6853,
0000000A03F5,
00000005C9BD,
000000021582,
0000000AC0AB,
0000000ABE2C,
00000007803E,
000000058231,
000000044413,
000000044330,
000000038FFF,
000000022C62,
000000034389,
00000004C50A,
000000009C6F,
FFFFFFFF2634,
FFFFFFFF8298,
0000000170CD,
00000002500A,
000000018355,
0000000629BD,
00000007683D,
000000031F60,
FFFFFFFFDD19,
0000000A2F90,
0000000DCC2A,
00000009DB00,
00000005849E,
000000027959,
0000000A5CD4,
0000000A6493,
00000007A416,
000000054231,
0000000406A3,
000000047B82,
000000038D70,
00000001B180,
000000036F0E,
000000045C14,
00000000DC6F,
FFFFFFFFE115,
FFFFFFFF7D7A,
000000016E3E,
000000026EC2,
000000025A60,
000000065F80,
00000006C1D7,
00000002B8FA,
FFFFFFFF7942,
00000009B21F,
0000000D6335,
0000000A4BA3,
00000005420E,
000000024107,
0000000A9A45,
0000000AC34B,
000000079749,
0000000589DF,
00000004C184,
00000004DF59,
000000031A3D,
00000001888B,
000000035574,
000000040F48,
00000000C7F4,
FFFFFFFFB072,
FFFFFFFFA3E0,
0000000159C3,
00000002E1F5;
